555555
555555
555555
555555
555555
555555
555555
555555
555555
555555
555555
555555
555555
555555
555555
555555
555555
555555
555555
555555
555555
555555
555555
555555
555555
555555
555555
555555
555555
555555
555555
555555
555555
555555
555555
555555
555555
555555
555555
555555
555555
555555
555555
555555
555555
555555
555555
555555
555555
555555
555555
555555
555555
555555
555555
555555
555555
555555
555555
555555
555555
555555
555555
555555
555555
555555
555555
555555
555555
555555
555555
555555
555555
555555
555555
555555
555555
555555
555555
555555
555555
555555
555555
555555
555555
555555
555555
555555
555555
555555
555555
555555
555555
555555
555555
555555
555555
555555
555555
555555
555555
555555
555555
555555
555555
555555
555555
555555
555555
555555
555555
555555
555555
555555
555555
555555
555555
555555
555555
555555
555555
555555
555555
555555
555555
555555
555555
555555
555555
555555
555555
555555
555555
555555
555555
555555
555555
555555
555555
555555
555555
555555
555555
555555
555555
555555
555555
555555
555555
555555
555555
555555
555555
555555
555555
555555
555555
555555
555555
555555
555555
555555
555555
555555
555555
555555
555555
555555
555555
555555
555555
555555
555555
555555
555555
555555
555555
555555
555555
555555
555555
555555
555555
555555
555555
555555
555555
555555
555555
555555
555555
555555
555555
555555
555555
555555
555555
555555
555555
555555
555555
555555
555555
555555
555555
555555
555555
555555
555555
555555
555555
555555
555555
555555
555555
555555
555555
555555
555555
555555
555555
555555
555555
555555
555555
555555
555555
555555
555555
555555
555555
555555
555555
555555
555555
555555
555555
555555
555555
555555
555555
555555
555555
555555
555555
555555
555555
555555
555555
555555
555555
555555
555555
555555
555555
555555
555555
555555
555555
555555
555555
555555
555555
555555
555555
555555
555555
555555
555555
555555
555555
555555
555555
555555
555555
555555
555555
555555
555555
555555
555555
555555
555555
555555
555555
555555
555555
555555
555555
555555
555555
555555
555555
555555
555555
555555
555555
555555
555555
555555
555555
555555
555555
555555
555555
555555
555555
555555
555555
555555
555555
555555
555555
555555
555555
555555
555555
555555
555555
555555
555555
555555
555555
555555
555555
555555
555555
555555
555555
555555
555555
555555
555555
555555
555555
555555
555555
555555
555555
555555
555555
555555
555555
555555
555555
555555
555555
555555
555555
555555
555555
555555
555555
555555
555555
555555
555555
555555
555555
555555
555555
555555
555555
555555
555555
555555
555555
555555
555555
555555
555555
555555
555555
555555
555555
555555
555555
555555
555555
555555
555555
555555
555555
555555
555555
555555
555555
555555
555555
555555
555555
555555
555555
555555
555555
555555
555555
555555
555555
555555
555555
555555
555555
555555
555555
555555
555555
555555
555555
555555
555555
555555
555555
555555
555555
555555
555555
555555
555555
555555
555555
555555
555555
555555
555555
555555
555555
555555
555555
555555
555555
555555
555555
555555
555555
555555
555555
555555
555555
555555
555555
555555
555555
555555
555555
555555
555555
555555
555555
555555
555555
555555
555555
555555
555555
555555
555555
555555
555555
555555
555555
555555
555555
555555
555555
555555
555555
555555
555555
555555
555555
555555
555555
555555
555555
555555
555555
555555
555555
555555
555555
555555
555555
555555
555555
555555
555555
555555
555555
555555
555555
555555
555555
555555
555555
555555
555555
555555
555555
555555
555555
555555
555555
555555
555555
555555
555555
555555
555555
555555
555555
555555
555555
555555
555555
555555
555555
555555
555555
555555
555555
555555
555555
555555
555555
555555
555555
555555
555555
555555
555555
555555
555555
555555
555555
555555
555555
555555
555555
555555
555555
555555
555555
555555
555555
555555
555555
555555
555555
555555
555555
555555
555555
555555
555555
555555
555555
555555
555555
555555
555555
555555
555555
555555
555555
555555
555555
555555
555555
555555
555555
555555
555555
555555
555555
555555
555555
555555
555555
555555
555555
555555
555555
555555
555555
555555
555555
555555
555555
555555
555555
555555
555555
555555
555555
555555
555555
555555
555555
555555
555555
555555
555555
555555
555555
555555
555555
555555
555555
555555
555555
555555
555555
555555
555555
555555
555555
555555
555555
555555
555555
555555
555555
555555
555555
555555
555555
555555
555555
555555
555555
555555
555555
555555
555555
555555
555555
555555
555555
555555
555555
555555
555555
555555
555555
555555
555555
555555
555555
555555
555555
555555
555555
555555
555555
555555
555555
555555
555555
555555
555555
555555
555555
555555
555555
555555
555555
555555
555555
555555
555555
555555
555555
555555
555555
555555
555555
555555
555555
555555
555555
555555
555555
555555
555555
555555
555555
555555
555555
555555
555555
555555
555555
555555
555555
555555
555555
555555
555555
555555
555555
555555
555555
555555
555555
555555
555555
555555
555555
555555
555555
555555
555555
555555
555555
555555
555555
555555
555555
555555
555555
555555
555555
555555
555555
555555
555555
555555
555555
555555
555555
555555
555555
555555
555555
555555
555555
555555
555555
555555
555555
555555
555555
555555
555555
555555
555555
555555
555555
555555
555555
555555
555555
555555
555555
555555
555555
555555
555555
555555
555555
555555
555555
555555
555555
555555
555555
555555
555555
555555
555555
555555
555555
555555
555555
555555
555555
555555
555555
555555
555555
555555
555555
555555
555555
555555
555555
555555
555555
555555
555555
555555
555555
555555
555555
555555
555555
555555
555555
555555
555555
555555
555555
555555
555555
555555
555555
555555
555555
555555
555555
555555
555555
555555
555555
555555
555555
555555
555555
555555
555555
555555
555555
555555
555555
555555
555555
555555
555555
555555
555555
555555
555555
555555
555555
555555
555555
555555
555555
555555
555555
555555
555555
555555
555555
555555
555555
555555
555555
555555
555555
555555
555555
555555
555555
555555
555555
555555
555555
555555
555555
555555
555555
555555
555555
555555
555555
555555
555555
555555
555555
555555
555555
555555
555555
555555
555555
555555
555555
555555
555555
555555
555555
555555
555555
555555
555555
555555
555555
555555
555555
555555
555555
555555
555555
555555
555555
555555
555555
555555
555555
555555
555555
555555
555555
555555
555555
555555
555555
555555
555555
555555
555555
555555
555555
555555
555555
555555
555555
555555
555555
555555
555555
555555
555555
555555
555555
555555
555555
555555
555555
555555
555555
555555
555555
555555
555555
555555
555555
555555
555555
555555
555555
555555
555555
555555
555555
555555
555555
555555
555555
555555
555555
555555
555555
555555
555555
555555
555555
555555
555555
555555
555555
555555
555555
555555
555555
555555
555555
555555
555555
555555
555555
555555
555555
555555
555555
555555
555555
555555
555555
555555
555555
555555
555555
555555
555555
555555
555555
555555
555555
555555
555555
555555
555555
555555
555555
555555
555555
555555
555555
555555
555555
555555
555555
555555
555555
555555
555555
555555
555555
555555
555555
555555
555555
555555
555555
555555
555555
555555
555555
555555
555555
555555
